<?xml version="1.0"?>
<opencv_storage>
<stage11>
  <maxWeakCount>6</maxWeakCount>
  <stageThreshold>-1.2725491523742676e+00</stageThreshold>
  <weakClassifiers>
    <_>
      <internalNodes>
        0 -1 681427 1.6691107302904129e-02</internalNodes>
      <leafValues>
        -6.2685263156890869e-01 4.2489269375801086e-01</leafValues></_>
    <_>
      <internalNodes>
        0 -1 2017125 2.1623220527544618e-04</internalNodes>
      <leafValues>
        -6.5990984439849854e-01 3.3976742625236511e-01</leafValues></_>
    <_>
      <internalNodes>
        0 -1 1915531 6.3922989647835493e-04</internalNodes>
      <leafValues>
        1.9817300140857697e-01 -9.8077672719955444e-01</leafValues></_>
    <_>
      <internalNodes>
        0 -1 1552538 5.8101853355765343e-03</internalNodes>
      <leafValues>
        1.5793126821517944e-01 -9.6288532018661499e-01</leafValues></_>
    <_>
      <internalNodes>
        0 -1 2270872 2.6189850177615881e-04</internalNodes>
      <leafValues>
        -6.2815070152282715e-01 2.4971219897270203e-01</leafValues></_>
    <_>
      <internalNodes>
        0 -1 1440713 -1.0663585271686316e-03</internalNodes>
      <leafValues>
        2.8625985980033875e-01 -5.3405189514160156e-01</leafValues></_></weakClassifiers></stage11>
</opencv_storage>
