<?xml version="1.0"?>
<opencv_storage>
<stage6>
  <maxWeakCount>7</maxWeakCount>
  <stageThreshold>-1.3305327892303467e+00</stageThreshold>
  <weakClassifiers>
    <_>
      <internalNodes>
        0 -1 1202116 -2.8141508810222149e-03</internalNodes>
      <leafValues>
        3.3333334326744080e-01 -7.0114940404891968e-01</leafValues></_>
    <_>
      <internalNodes>
        0 -1 1741746 1.5818163228686899e-04</internalNodes>
      <leafValues>
        -7.7530294656753540e-01 2.5578919053077698e-01</leafValues></_>
    <_>
      <internalNodes>
        0 -1 1741957 -9.1052497737109661e-04</internalNodes>
      <leafValues>
        -9.7821831703186035e-01 1.9652248919010162e-01</leafValues></_>
    <_>
      <internalNodes>
        0 -1 1455985 6.4107100479304790e-03</internalNodes>
      <leafValues>
        1.6423022747039795e-01 -9.2448496818542480e-01</leafValues></_>
    <_>
      <internalNodes>
        0 -1 1626252 3.5713979741558433e-04</internalNodes>
      <leafValues>
        2.0334751904010773e-01 -8.7334853410720825e-01</leafValues></_>
    <_>
      <internalNodes>
        0 -1 1518200 -1.6030561178922653e-02</internalNodes>
      <leafValues>
        3.1815725564956665e-01 -5.6753355264663696e-01</leafValues></_>
    <_>
      <internalNodes>
        0 -1 2068595 4.1155617509502918e-06</internalNodes>
      <leafValues>
        -5.9686613082885742e-01 3.4035813808441162e-01</leafValues></_></weakClassifiers></stage6>
</opencv_storage>
